/*  File    : neural_net_nrj_hpbv2emb.c
 * Gestion d'energie par reseau de enurones issue de tensorflow et keras
 *
 *  © Copyright IFSTTAR LTE 1999-2011 
 *
 * -------------------------------------------------------------------------
 *
 * Objet:
 *
 *      Modelisation des lignes de bus.  
 *      INRETS Juillet 1999 
 *      
 * 
 *  Copyright (c) 1990-1998 by The MathWorks, Inc. All Rights Reserved.
 *  $Revision: 1.3 $
 *  
 * Parametres de sortie:
  *                                     y[0] : puissance mecanique ACM1
  */


#define S_FUNCTION_NAME neural_net_nrj_hpbv2emb
#define S_FUNCTION_LEVEL 2

#include "simstruc.h"
#include <stdio.h> 
#include <math.h> 
#include "./keras2c-master/include/k2c_include.h" 
#include "./keras2c-master/NrjMngt_Conso_HP_BV_2EMB_TWC_test.h" 
 #include <string.h> 
#include "./keras2c-master/include/k2c_tensor_include.h" 

#define U(element) (*uPtrs[element])  		/* Pointer to Input Port0 */

#define NPARAMS		0		/* nombre total de parametres de la Sfonction */

float test1_input_4_1_input_array[3] = {
-2.15836880e-01f,-1.77799916e+00f,-1.07770152e+00f,}; 
k2c_tensor test1_input_4_1_input = {&test1_input_4_1_input_array[0],1,3,{3,1,1,1,1}}; 
float c_layer4_1_test1_array[22] = {0}; 
k2c_tensor c_layer4_1_test1 = {&c_layer4_1_test1_array[0],1,22,{22, 1, 1, 1, 1}}; 
int classes[22] = {-25000,-22500,-20000,-17500,-15000,-12500,-10000,-7500,-5000,-2500,0,2500,5000,7500,10000,12500,15000,17500,20000,22500,25000,27500};
int power_acm1(float *array) {
  int n = 22;
  int index; 
  double proba;
  proba = -1;
  // storing the largest number to arr[0]
  for (int i = 0; i < n; i++) {
    if (proba < *(array+i)) {
      proba = *(array+i);
      index = i;
    }  
 }
  int  power = classes[index];
  return power;
}
/*====================*
 * S-function methods *
 *====================*/

/* Function: mdlInitializeSizes ===============================================
 * Abstract:
 *    The sizes information is used by Simulink to determine the S-function
 *    block's characteristics (number of inputs, outputs, states, etc.).
 */
static void mdlInitializeSizes(SimStruct *S)
{
    
      
    ssSetNumSFcnParams(S, NPARAMS);  /* Number of expected parameters */
    if (ssGetNumSFcnParams(S) != ssGetSFcnParamsCount(S)) {
        return; /* Parameter mismatch will be reported by Simulink */
    }

     
    ssSetNumContStates(S, 0);
    ssSetNumDiscStates(S, 0);

    if (!ssSetNumInputPorts(S, 1)) return; //3 inputs with 1 dimensions each
    ssSetInputPortWidth(S, 0, 3); // pour multiplexer si besoin
    ssSetInputPortDirectFeedThrough(S, 0, 3);

    if (!ssSetNumOutputPorts(S, 1)) return;
    ssSetOutputPortWidth(S, 0, 1);

    
    ssSetNumSampleTimes(S, 1);

    ssSetNumRWork(S, 0);
    ssSetNumIWork(S, 0);
    ssSetNumPWork(S, 0);
    ssSetNumModes(S, 0);
    ssSetNumNonsampledZCs(S, 0);

    /* Take care when specifying exception free code - see sfuntmpl.doc */
    ssSetOptions(S, SS_OPTION_EXCEPTION_FREE_CODE);

}

/* Function: mdlInitializeSampleTimes =========================================
 * Abstract:
 *    Specifiy that we have a continuous sample time.
 */
static void mdlInitializeSampleTimes(SimStruct *S)
{
    ssSetSampleTime(S, 0, CONTINUOUS_SAMPLE_TIME);
    ssSetOffsetTime(S, 0, 0.0);
}



#define MDL_INITIALIZE_CONDITIONS
/* Function: mdlInitializeConditions ========================================
 * Abstract:
 *    Initialize both continuous states to zero.
 */
static void mdlInitializeConditions(SimStruct *S)
{

NrjMngt_Conso_HP_BV_2EMB_TWC_test_initialize();
}

/* Function: mdlOutputs =======================================================
 * Abstract:
 *      y = Cx + Du 
 */
static void mdlOutputs(SimStruct *S, int_T tid)
{
   real_T            *y    = ssGetOutputPortRealSignal(S,0);
   InputRealPtrsType uPtrs = ssGetInputPortRealSignalPtrs(S,0);
   // static char mess_err[256];
   real_T input[3];

   /* recuperation de l input */ 
   input[0] = *uPtrs[0];
   input[1] = *uPtrs[1];
   input[2] = *uPtrs[2];

   float input_4_1_input_array[3];
   input_4_1_input_array[0] = input[0];
   input_4_1_input_array[1] = input[1];
   input_4_1_input_array[2] = input[2];
   k2c_tensor input_4_1_input = {&input_4_1_input_array[0],1,3,{3,1,1,1,1}}; 

   //binary_test(&test1_input_5_input,&c_Layer3_test1); 
   //binary_test(&test1_input_5_input,&c_Layer3_test1); 
   NrjMngt_Conso_HP_BV_2EMB_TWC_test(&input_4_1_input, &c_layer4_1_test1);
   //printf("%s %f\n","Valeur de sortie du reseau 0 :",c_Layer4_test1.array[0]);
   //printf("%s %f\n","Valeur de sortie du reseau 1 :",c_Layer4_test1.array[1]);
   
   y[0]=power_acm1(c_layer4_1_test1.array);
//   for (int i = 0; i < 22; ++i) {
//    y[i]=*(c_layer4_1_test1.array+i);
//   }
   // y[0]=0;
   //printf("Sortie mdl_output y0=%f y1=%f indbal=%d\n",y[0],y[1],ind_bal); */
}

#define MDL_DERIVATIVES
/* Function: mdlDerivatives =================================================
 * Abstract:
 *      xdot = Ax + Bu
 */
static void mdlDerivatives(SimStruct *S)
{
}

/* Function: mdlTerminate =====================================================
 * Abstract:
 *    No termination needed, but we are required to have this routine.
 */
static void mdlTerminate(SimStruct *S)
{
NrjMngt_Conso_HP_BV_2EMB_TWC_test_terminate(); 
}

#ifdef  MATLAB_MEX_FILE    /* Is this file being compiled as a MEX-file? */
#include "simulink.c"      /* MEX-file interface mechanism */
#else
#include "cg_sfun.h"       /* Code generation registration function */
#endif


 


void NrjMngt_Conso_HP_BV_2EMB_TWC_test(k2c_tensor* input_2_input, k2c_tensor* Layer5_output) { 

float Layer2_output_array[20] = {0}; 
k2c_tensor Layer2_output = {&Layer2_output_array[0],1,20,{20, 1, 1, 1, 1}}; 
float Layer2_kernel_array[60] = {
+3.76341820e-01f,-1.21480656e+00f,-2.18106413e+00f,-3.02208924e+00f,+2.80053526e-01f,
-1.44236732e+00f,-1.77220190e+00f,+1.11770225e+00f,+5.55207014e-01f,+1.34493506e+00f,
-7.98565269e-01f,-5.57303250e-01f,-1.78581381e+00f,+5.24156988e-01f,+3.04643661e-01f,
-6.23012967e-02f,-1.42573857e+00f,-5.37458837e-01f,-2.28518888e-01f,-8.74062479e-01f,
-1.43401945e+00f,+1.52787328e+00f,-3.69189709e-01f,+2.79738158e-01f,+1.48780274e+00f,
+6.06190860e-01f,-1.14474781e-01f,+9.32535470e-01f,+1.35820150e+00f,-3.23662251e-01f,
+5.58995962e-01f,-1.02721226e+00f,+1.50626516e+00f,+3.97462428e-01f,+9.40641820e-01f,
-7.00785220e-03f,-1.93569958e-01f,+8.51339161e-01f,-2.90285373e+00f,-9.65239525e-01f,
-5.62238276e-01f,+1.22848384e-01f,+4.43190895e-02f,-1.71059743e-02f,-1.66258365e-02f,
-6.64844736e-02f,-1.02490615e-02f,-8.57674554e-02f,+5.87396231e-03f,+5.39303243e-01f,
-2.08809122e-01f,+8.71246874e-01f,-1.15414076e-02f,+8.64889741e-01f,+9.25143249e-03f,
-1.78625429e+00f,-4.36998576e-01f,+3.25190306e-01f,-5.72904237e-02f,+2.56546915e-01f,
}; 
k2c_tensor Layer2_kernel = {&Layer2_kernel_array[0],2,60,{ 3,20, 1, 1, 1}}; 
float Layer2_bias_array[20] = {
+1.29361236e+00f,-1.86187387e-01f,+1.23598707e+00f,+2.23910183e-01f,+9.52788711e-01f,
-1.78028941e-01f,+4.35972214e-01f,+2.49038839e+00f,+2.48227334e+00f,+3.08423251e-01f,
+2.84352946e+00f,+1.56961238e+00f,+9.25846756e-01f,-5.69289744e-01f,+1.60316002e+00f,
+4.91779655e-01f,+1.42482817e+00f,+8.93405795e-01f,-2.91584063e+00f,+1.70129502e+00f,
}; 
k2c_tensor Layer2_bias = {&Layer2_bias_array[0],1,20,{20, 1, 1, 1, 1}}; 
float Layer2_fwork[63] = {0}; 

 
float Layer3_output_array[20] = {0}; 
k2c_tensor Layer3_output = {&Layer3_output_array[0],1,20,{20, 1, 1, 1, 1}}; 
float Layer3_kernel_array[400] = {
+5.61849415e-01f,+8.09812769e-02f,+2.04076432e-02f,-1.29763409e-01f,+4.91255164e-01f,
+2.08980978e-01f,-7.82125145e-02f,+1.25094593e-01f,+3.92542183e-01f,+2.88695246e-01f,
-3.49323481e-01f,+6.49869442e-01f,+6.15459830e-02f,-5.37852794e-02f,+3.21978837e-01f,
+8.38281691e-01f,-3.20970684e-01f,-3.56173098e-01f,-5.69817066e-01f,+3.99004579e-01f,
+5.85655689e-01f,-5.55644453e-01f,+1.21814586e-01f,+1.85402513e-01f,-4.64577340e-02f,
-1.14005908e-01f,-1.68676272e-01f,-3.49417537e-01f,+1.93076536e-01f,+8.86762202e-01f,
-2.45799497e-01f,-5.47955334e-01f,+1.86600775e-01f,-9.65523183e-01f,-2.61531502e-01f,
-2.22570807e-01f,-4.96412486e-01f,+4.76713777e-01f,+2.34800771e-01f,-5.97299576e-01f,
+7.89869487e-01f,+2.43789241e-01f,+9.18122351e-01f,-2.40745414e-02f,+7.75614917e-01f,
+3.05249155e-01f,-7.36908913e-01f,-1.98819667e-01f,+6.18317664e-01f,-1.92067116e-01f,
-2.63894826e-01f,+3.83369267e-01f,-3.50707173e-01f,+3.58518302e-01f,-1.55614819e-02f,
+8.52306262e-02f,-9.20296609e-01f,-7.64919281e-01f,-1.16457798e-01f,+1.65824547e-01f,
+1.42981017e+00f,+7.40948543e-02f,+1.99573874e-01f,+3.86516690e-01f,+1.01988292e+00f,
-2.53170077e-02f,-9.38398182e-01f,-1.33505976e+00f,+2.81664431e-01f,+1.46121874e-01f,
-5.23000121e-01f,+8.11512098e-02f,-3.85726184e-01f,-2.85691649e-01f,+1.77579045e-01f,
+3.31634462e-01f,-1.48596728e+00f,-6.71004236e-01f,-2.53287196e-01f,-1.06845334e-01f,
-9.33789968e-01f,+6.14592433e-01f,-2.02587262e-01f,-2.96699017e-01f,-7.79099837e-02f,
+1.84792280e-01f,+5.92199266e-02f,+1.35374293e-01f,-2.23248556e-01f,+1.08469324e-02f,
-1.59599945e-01f,+2.15489879e-01f,+2.63450027e-01f,+7.81099916e-01f,+5.27881682e-01f,
+6.87795132e-02f,-8.52801204e-02f,+2.35506877e-01f,+2.50555396e-01f,+1.10739149e-01f,
+7.65434742e-01f,-1.78647548e-01f,+9.44603160e-02f,+1.92210957e-01f,+3.40999156e-01f,
-4.74310890e-02f,-4.09212351e-01f,-7.92656660e-01f,+4.22281139e-02f,+2.59367704e-01f,
-3.01992208e-01f,-2.61954397e-01f,-3.16699922e-01f,-4.15846914e-01f,+9.54763219e-03f,
-3.43291909e-02f,-5.36917746e-01f,-1.59847394e-01f,-1.14873432e-01f,-1.55120730e-01f,
+6.45450056e-01f,+5.11097014e-02f,+5.59536636e-01f,+1.56143486e-01f,+6.23324096e-01f,
+5.66522172e-03f,-4.89880234e-01f,-7.33655214e-01f,+2.37577140e-01f,-4.93060704e-03f,
-3.51189613e-01f,+1.71499282e-01f,-1.56563655e-01f,+1.59725294e-01f,+9.18416902e-02f,
+2.03700349e-01f,-7.77962208e-01f,-6.04052126e-01f,-1.43015668e-01f,+2.24498823e-01f,
-5.59327602e-01f,+4.86274272e-01f,-8.51908386e-01f,-5.81991822e-02f,-4.47114825e-01f,
-1.34811372e-01f,+3.74568045e-01f,+6.68920338e-01f,-2.89302945e-01f,+6.48712218e-02f,
+2.33604684e-01f,+1.42945856e-01f,+1.54667255e-02f,+5.19577086e-01f,+6.18521094e-01f,
+2.77879655e-01f,+4.19579804e-01f,+1.96290925e-01f,+3.83332781e-02f,-3.26817259e-02f,
-7.55654931e-01f,+4.56206620e-01f,-4.66334969e-01f,+1.13928330e-03f,-4.22144115e-01f,
-4.55156974e-02f,+3.49336445e-01f,+6.91271126e-01f,-1.66286513e-01f,-1.22932293e-01f,
+3.57602835e-01f,-7.72743970e-02f,+1.46423608e-01f,+5.36286056e-01f,+4.78492826e-01f,
-1.42743006e-01f,+5.65352321e-01f,+2.96619773e-01f,+1.79425418e-01f,-7.16877356e-02f,
+5.00008523e-01f,-9.37390983e-01f,-1.17534429e-01f,-9.60386023e-02f,-1.82795539e-01f,
-3.76530409e-01f,+2.19016075e-01f,+7.86151085e-03f,-3.49393547e-01f,+4.53929514e-01f,
-3.05722415e-01f,-1.03429072e-01f,+1.06621929e-01f,-4.90866154e-01f,-4.97380406e-01f,
+2.99500853e-01f,-3.34591687e-01f,-6.55117929e-02f,-2.65388966e-01f,-1.13658071e-01f,
-6.76382473e-03f,-3.02036572e-02f,+5.21796763e-01f,+9.71538126e-02f,-7.02537522e-02f,
+3.05437058e-01f,+2.96539068e-01f,+3.62713456e-01f,+2.96473384e-01f,-2.25496992e-01f,
+2.80498773e-01f,-3.42163324e-01f,+1.15090683e-02f,-8.89754947e-03f,-1.31307676e-01f,
-6.76094413e-01f,+7.66570866e-01f,+7.45776519e-02f,+4.96946909e-02f,+1.17464371e-01f,
-1.51069807e-02f,-1.19119093e-01f,+3.30170184e-01f,-3.20883811e-01f,+3.82663250e-01f,
+2.49696612e-01f,+9.44179296e-02f,+6.42889142e-01f,-2.40392983e-02f,-1.16869003e-01f,
+5.27237393e-02f,+6.84251487e-01f,-4.74048585e-01f,+7.37749279e-01f,-3.08249444e-01f,
+5.07797360e-01f,+5.62606007e-02f,-4.53955159e-02f,+5.16100563e-02f,+1.94822967e-01f,
+1.05374110e+00f,-4.10680503e-01f,+3.31394792e-01f,+4.57818240e-01f,+7.13942111e-01f,
-1.09681234e-01f,-3.19630057e-01f,-1.00114596e+00f,+2.04305932e-01f,+7.19981372e-01f,
-3.65992844e-01f,-4.64157104e-01f,+2.97637373e-01f,-6.57433867e-01f,-2.14159697e-01f,
-4.13381219e-01f,-8.16974223e-01f,+1.20999686e-01f,+1.92343593e-01f,-3.14503938e-01f,
-1.44602776e-01f,-5.58226168e-01f,+2.21794583e-02f,+3.04872226e-02f,+1.80582944e-02f,
-1.19698070e-01f,+4.22117233e-01f,+1.36438593e-01f,-2.59476960e-01f,+3.73434156e-01f,
-1.35749169e-02f,+6.24397993e-02f,+2.55557925e-01f,-2.95676321e-01f,-4.87679809e-01f,
+4.51825000e-02f,-2.09473018e-02f,-2.69153863e-01f,-7.29065165e-02f,-2.20472619e-04f,
-5.17897964e-01f,+3.10052335e-01f,-2.77897179e-01f,+6.76665641e-03f,-2.58236498e-01f,
-2.73536742e-02f,+2.28075817e-01f,+4.55782562e-01f,-9.88506600e-02f,-1.02283113e-01f,
+2.31572121e-01f,-7.75356665e-02f,+1.78883702e-01f,+3.67516518e-01f,+3.07212651e-01f,
-1.28270537e-01f,+4.09836203e-01f,+2.09020436e-01f,+1.36676714e-01f,-6.64644614e-02f,
-1.17331512e-01f,+1.79853305e-01f,+2.99057625e-02f,+4.74471986e-01f,+1.28358617e-01f,
+1.92501649e-01f,+1.77330196e-01f,+3.17062020e-01f,-3.73366237e-01f,-9.68614519e-02f,
+2.04821844e-02f,+5.42348623e-02f,-1.38879955e+00f,-1.67957813e-01f,+5.26207834e-02f,
+2.53409948e-02f,-9.72220302e-03f,-9.49618876e-01f,-1.30992129e-01f,+1.71665549e-01f,
+2.12405682e-01f,+2.89267898e-01f,+6.12342119e-01f,+1.17183380e-01f,+2.55353987e-01f,
+3.28532279e-01f,-6.96246624e-01f,-8.54572356e-02f,+5.48976183e-01f,-2.87764221e-01f,
-3.12652476e-02f,+2.12112904e-01f,-6.28940403e-01f,+1.78708613e-01f,+1.22719429e-01f,
+2.43119180e-01f,-2.60740101e-01f,-4.91618782e-01f,-1.19593121e-01f,+9.75459516e-02f,
+2.38270164e-01f,-1.95168793e-01f,+1.74867213e-01f,+2.07639605e-01f,+1.00532614e-01f,
+2.95045897e-02f,+2.86827479e-02f,+2.28688881e-01f,+2.17891425e-01f,+3.10029238e-01f,
+6.04622699e-02f,-4.02644455e-01f,+3.49103093e-01f,-3.01601440e-01f,-2.10501760e-01f,
-5.75465798e-01f,-3.40480417e-01f,-6.21141903e-02f,+2.54841894e-01f,-2.13919252e-01f,
-1.65074259e-01f,+7.68223107e-01f,-4.60493177e-01f,-5.07342339e-01f,+1.08651352e+00f,
+7.09298477e-02f,-2.90012836e-01f,-4.86987203e-01f,-1.92373525e-02f,-1.36066929e-01f,
-5.92091918e-01f,+1.04367065e+00f,+3.40192094e-02f,+9.61745083e-01f,+5.32545865e-01f,
+1.14409578e+00f,-1.38295555e+00f,+1.21726187e-33f,-1.14541676e-33f,+2.57994562e-01f,
+9.50536877e-02f,+2.59125203e-01f,+4.87648427e-01f,-3.96802455e-01f,+3.57347310e-01f,
+5.70869207e-01f,-1.43511444e-01f,+1.50719762e-01f,+2.98763067e-01f,+7.80114606e-02f,
-8.76944214e-02f,+4.07907397e-01f,-3.00785899e-01f,+7.18479872e-01f,+1.07728548e-01f,
+5.70762642e-02f,+8.43503699e-02f,-1.48105714e-02f,-1.16745517e-01f,+5.25809169e-01f,
}; 
k2c_tensor Layer3_kernel = {&Layer3_kernel_array[0],2,400,{20,20, 1, 1, 1}}; 
float Layer3_bias_array[20] = {
-2.18226776e-01f,+2.59536337e-02f,+1.53851497e+00f,-2.71236718e-01f,-5.76929569e-01f,
+1.35060894e+00f,+9.95777130e-01f,+2.33986115e+00f,+6.81670368e-01f,-7.50785887e-01f,
+1.80519783e+00f,+2.67249998e-02f,-6.45062268e-01f,+8.77810597e-01f,+3.11635554e-01f,
-9.22667563e-01f,+1.47817993e+00f,-9.32609662e-02f,-2.19708696e-01f,+1.01615775e+00f,
}; 
k2c_tensor Layer3_bias = {&Layer3_bias_array[0],1,20,{20, 1, 1, 1, 1}}; 
float Layer3_fwork[420] = {0}; 

 
float Layer4_output_array[20] = {0}; 
k2c_tensor Layer4_output = {&Layer4_output_array[0],1,20,{20, 1, 1, 1, 1}}; 
float Layer4_kernel_array[400] = {
-1.04948354e+00f,-1.06594540e-01f,-5.48190176e-01f,-6.81481779e-01f,+1.19316983e+00f,
+1.44767508e-01f,-1.46813750e+00f,-2.20356837e-01f,-3.51037264e-01f,+7.01692045e-01f,
-6.59641504e-01f,-2.13588595e-01f,-2.56228894e-01f,-1.95248895e-33f,-1.56710478e-33f,
-2.10653037e-01f,-4.09498990e-01f,-4.97388989e-01f,+6.45840764e-01f,-1.99707374e-01f,
+1.96850374e-01f,+3.82265210e-01f,+7.00887382e-01f,+7.03987712e-03f,-7.06890762e-01f,
+1.91583410e-01f,+5.93170643e-01f,+5.15355408e-01f,+2.87723035e-01f,-2.61572152e-01f,
+3.70082796e-01f,+4.26514566e-01f,+6.65832639e-01f,-8.86832923e-02f,-3.01210766e-33f,
+8.53379890e-02f,+6.74961507e-01f,+3.17154706e-01f,+3.97578105e-02f,-1.45191476e-01f,
+1.77413553e-01f,-2.92498440e-01f,-3.58832851e-02f,-8.30970109e-01f,+7.84420431e-01f,
-5.18528521e-01f,+8.45559001e-01f,-8.52014646e-02f,+7.26172328e-02f,+4.11059052e-01f,
-2.34273687e-01f,+1.63163450e-02f,-3.32833529e-01f,-6.60594463e-01f,-1.29999904e-33f,
-2.00672939e-01f,-3.69961470e-01f,+4.00584817e-01f,+4.10733908e-01f,+6.17176890e-01f,
+1.96919423e-02f,-2.45349765e-01f,-2.28537813e-01f,-1.00765206e-01f,+4.00339633e-01f,
+3.30005348e-01f,-3.17194223e-01f,+1.05606750e-01f,-2.16913894e-01f,-3.70842358e-03f,
-6.21209340e-03f,+2.40775377e-01f,-1.79682866e-01f,-6.98384047e-02f,+4.69032807e-34f,
+2.09261611e-01f,-4.10549551e-01f,-4.98877108e-01f,-2.80377150e-01f,-3.07324260e-01f,
-1.14123881e+00f,+1.73393145e-01f,+3.65176737e-01f,-1.21768987e+00f,+3.14331442e-01f,
+4.72036809e-01f,+3.45724791e-01f,+2.37535536e-01f,+1.94378465e-01f,+4.90446359e-01f,
-3.89685720e-01f,+3.91908810e-02f,-7.23331943e-02f,-3.01538706e-01f,-3.03521687e-34f,
+1.04979143e-01f,+1.52660266e-01f,-4.60663855e-01f,+7.04326749e-01f,+4.84025478e-01f,
+3.64625216e-01f,-1.10723116e-01f,+8.92201811e-02f,+2.84978300e-01f,-2.85937935e-02f,
-2.22401842e-01f,+5.10868490e-01f,+5.93689606e-02f,-6.25386685e-02f,-2.72691995e-02f,
+3.36217463e-01f,+1.33955687e-01f,+8.99044331e-03f,-5.13313413e-01f,+5.25267079e-34f,
+2.71581858e-01f,+2.28104413e-01f,+4.80767429e-01f,+1.78331539e-01f,-6.73626885e-02f,
-6.13667250e-01f,+1.16943017e-01f,-1.26563609e-01f,+3.53670239e-01f,+3.40742274e-33f,
+6.13884069e-02f,-8.64042222e-01f,-3.60399932e-01f,+4.02041115e-02f,+8.48608295e-09f,
-7.12375462e-01f,-4.03688639e-01f,-4.11364019e-01f,+7.68438935e-01f,+2.96769418e-33f,
-5.23822129e-01f,-2.87648886e-01f,+3.47426273e-02f,-3.94434005e-01f,+3.10891002e-01f,
+5.92647970e-01f,-4.51585025e-01f,-1.02382958e+00f,+6.27972722e-01f,-1.10746634e+00f,
-2.66986992e-02f,-9.26474571e-01f,-2.47118875e-01f,-4.85352576e-01f,-8.88378918e-01f,
+9.52487532e-03f,-2.09346443e-01f,+2.02878788e-01f,+4.48440850e-01f,-2.52500484e-33f,
-2.49374837e-01f,-7.46236563e-01f,-4.85599548e-01f,-5.41836619e-01f,+3.13291252e-01f,
+3.53115648e-01f,+2.66288836e-02f,-5.17084859e-02f,-2.91099995e-01f,+4.16643351e-01f,
-2.39653781e-01f,+6.37046397e-01f,+7.39664733e-02f,+1.80118736e-02f,+2.29558945e-01f,
+1.77546054e-01f,+1.29943207e-01f,+3.42896223e-01f,-7.33369052e-01f,+1.60359672e-33f,
+1.55012950e-01f,-1.09471552e-01f,-1.06863007e-01f,+3.43518436e-01f,-3.89025211e-01f,
-8.97341445e-02f,-4.69372310e-02f,-2.95942634e-01f,-2.61326224e-01f,+7.51832426e-02f,
-4.01032120e-01f,-3.10301930e-01f,-4.43394095e-01f,-2.53124703e-02f,+1.95789829e-01f,
-1.76039815e-01f,-2.42679775e-01f,-4.41500664e-01f,+1.16974361e-01f,-2.29979923e-33f,
-2.14602232e-01f,+3.54041725e-01f,+3.69855642e-01f,-1.49637282e-01f,-7.54606783e-01f,
-2.00894639e-01f,-3.13351899e-01f,-1.63631663e-01f,+6.39382899e-01f,-2.42733762e-01f,
+1.54250845e-01f,-5.75016618e-01f,-4.79866080e-02f,-2.02111036e-01f,-3.49189550e-01f,
-1.95505634e-01f,+7.30955275e-03f,+5.22520505e-02f,+4.93467540e-01f,-2.63973199e-33f,
+2.82578379e-01f,-1.82220638e-01f,-2.96736717e-01f,-5.08243501e-01f,+1.09778740e-01f,
-1.62931845e-01f,+3.20269793e-01f,+4.34326470e-01f,-5.17010868e-01f,-6.88570738e-01f,
+2.77220309e-01f,+6.28360033e-01f,+3.37143242e-01f,+2.67929941e-01f,-1.07577100e-01f,
+2.68107027e-01f,+1.80720255e-01f,+2.18335405e-01f,-6.14255607e-01f,+6.77396803e-34f,
+2.13421509e-01f,+7.12004900e-01f,+3.23642462e-01f,+6.25864029e-01f,+2.02932090e-01f,
-3.91851505e-03f,-1.25204446e-02f,-6.21097796e-02f,-7.22609460e-02f,-1.11070583e-02f,
-2.13986665e-01f,-5.30769601e-02f,-3.65306705e-01f,-5.21773100e-02f,-1.67255439e-02f,
+2.55011857e-01f,-4.09504265e-01f,-1.10881770e+00f,+6.18856788e-01f,-4.94842677e-33f,
-2.39299685e-01f,+4.09854084e-01f,+7.96714664e-01f,-2.96036415e-02f,-4.03911650e-01f,
+7.53732562e-01f,+3.80017936e-01f,+7.86899865e-01f,+3.29421252e-01f,-1.19829631e+00f,
-1.05549529e-01f,+1.15923977e+00f,+2.77276129e-01f,+2.79814243e-01f,-1.66531727e-01f,
+1.71940520e-01f,+2.65951812e-01f,+4.14172262e-01f,-2.58082688e-01f,+1.14805041e-33f,
+4.96720999e-01f,+6.14174545e-01f,+1.27296299e-01f,+2.83421010e-01f,+4.32320148e-01f,
+2.52843231e-01f,+4.81096566e-01f,+5.34642398e-01f,+9.83069465e-02f,-6.61137998e-01f,
+1.51133403e-01f,+1.29071236e-01f,+4.24278915e-01f,+3.28529775e-01f,-1.79900214e-01f,
+4.90376472e-01f,+3.74810874e-01f,+3.33949506e-01f,+1.41395316e-01f,+2.00083024e-33f,
-3.15271728e-02f,+5.12254000e-01f,+1.59353599e-01f,+3.62015553e-02f,-3.65989387e-01f,
-1.74576849e-01f,+4.09990638e-01f,+2.20280975e-01f,-6.77920282e-01f,-7.74143875e-01f,
+5.06939769e-01f,+6.12125158e-01f,+4.53902513e-01f,+4.05918926e-01f,-1.08187996e-01f,
+2.84548223e-01f,+2.92281151e-01f,+5.61255872e-01f,-7.19032824e-01f,-4.46074686e-33f,
+1.38436933e-03f,+5.43355584e-01f,+3.45467068e-02f,+1.94821373e-01f,+1.44708142e-01f,
-7.95675039e-01f,-6.76682591e-02f,+3.61028075e-01f,+9.34013963e-01f,+1.24667164e-33f,
+3.80063921e-01f,-1.18872726e+00f,+8.85373354e-02f,+2.23579377e-01f,+2.83762362e-34f,
-1.42138994e+00f,-1.66600160e-02f,-4.07708943e-01f,+9.04744983e-01f,+2.23093950e-33f,
+6.43767715e-01f,+6.03571953e-03f,-2.57037699e-01f,-1.18427956e+00f,+5.45937657e-01f,
-1.30958700e+00f,-1.61146566e-01f,+6.44194111e-02f,+1.73239246e-01f,-1.21731469e-02f,
+9.70403403e-02f,-2.27371648e-01f,-1.76791444e-01f,+2.18057614e-02f,-3.69322561e-02f,
+2.23517850e-01f,-1.69386104e-01f,+5.28933294e-02f,+1.34868458e-01f,-3.08682268e-34f,
-1.24025390e-01f,+2.22572044e-01f,+9.48979497e-01f,-1.10288255e-01f,+2.22046956e-01f,
-3.38826209e-01f,-1.19009376e-01f,-1.38199339e-02f,+2.12167561e-01f,-1.66301981e-01f,
+1.97869852e-01f,+1.20215923e-01f,-1.28253142e-03f,-9.64485779e-02f,-1.02831215e-01f,
+4.14384693e-01f,+1.41761541e-01f,+2.60832071e-01f,-2.67358981e-02f,-3.11147991e-33f,
+2.80125827e-01f,-4.39632326e-01f,+1.13808371e-01f,-6.00560308e-02f,+4.95656580e-03f,
+4.09661978e-01f,+2.63995320e-01f,+3.17819327e-01f,-2.02019528e-01f,-1.91555396e-01f,
-1.33307785e-01f,+5.38626492e-01f,+1.71096966e-01f,+1.59052119e-01f,-1.44712001e-01f,
+2.09656969e-01f,+7.17768166e-03f,-2.38547131e-01f,-1.36288956e-01f,-3.01918965e-33f,
+3.97645831e-02f,+4.38173503e-01f,+4.13912237e-01f,+3.00024092e-01f,+8.51816460e-02f,
}; 
k2c_tensor Layer4_kernel = {&Layer4_kernel_array[0],2,400,{20,20, 1, 1, 1}}; 
float Layer4_bias_array[20] = {
+1.12005031e+00f,+1.03791547e+00f,+4.37268049e-01f,+1.06647289e+00f,+3.19354028e-01f,
-1.04347551e+00f,+2.05246758e+00f,+4.83239770e-01f,+8.02038133e-01f,-1.94751099e-01f,
+1.26158702e+00f,+5.30722320e-01f,-6.55708611e-01f,-2.03370322e-02f,-1.94021314e-02f,
-8.95909518e-02f,+7.59751439e-01f,+1.37114012e+00f,-2.44134262e-01f,-7.59111583e-01f,
}; 
k2c_tensor Layer4_bias = {&Layer4_bias_array[0],1,20,{20, 1, 1, 1, 1}}; 
float Layer4_fwork[420] = {0}; 

 
float Layer5_kernel_array[440] = {
+6.12407166e-05f,-2.70777615e-03f,-1.52310599e-02f,+2.66727865e-01f,-7.34596029e-02f,
-3.72981817e-01f,-5.32251000e-02f,+2.49638110e-01f,+4.36729550e-01f,-1.48511386e+00f,
-1.42056882e+00f,+2.65233368e-02f,+7.87162304e-01f,+3.23151350e-01f,+4.59662795e-01f,
+9.01882112e-01f,+2.90033758e-01f,-1.34559691e-01f,-2.69569367e-01f,-2.40338494e-07f,
-2.39993483e-07f,-2.39186960e-07f,-3.96313798e-03f,-1.18629346e-02f,-5.42854406e-02f,
-4.30357486e-01f,-6.16414666e-01f,-6.42382324e-01f,-3.49929035e-02f,+8.91402215e-02f,
+2.83238858e-01f,+2.58206397e-01f,+3.05899858e-01f,+3.17232758e-01f,-1.19771048e-01f,
+1.23753011e-01f,+1.41726613e-01f,+6.73591495e-02f,+1.63005106e-02f,+1.83010027e-01f,
+1.46056354e-01f,+4.06704544e-07f,+4.07008656e-07f,+4.07711070e-07f,-4.11400571e-03f,
-7.54587352e-03f,-6.72343969e-02f,-4.41121429e-01f,-1.31496918e+00f,-4.26175088e-01f,
-7.98605457e-02f,+2.58921802e-01f,+4.72209126e-01f,+6.53746068e-01f,+6.12410486e-01f,
-1.19148884e-02f,-3.55528481e-02f,+1.52760759e-01f,+2.80699618e-02f,-7.62056410e-02f,
+2.39454523e-01f,+1.45265654e-01f,-8.31997022e-02f,+1.49119856e-07f,+1.49235419e-07f,
+1.49501929e-07f,-4.47028695e-04f,-4.17239824e-03f,-2.55560707e-02f,+2.12275252e-01f,
+4.59683478e-01f,+3.32949758e-01f,+2.50869185e-01f,+1.32586390e-01f,-2.28492189e-02f,
+2.53309578e-01f,+1.06833868e-01f,-3.66284256e-03f,-2.28851938e+00f,-5.80746472e-01f,
+4.22862977e-01f,+1.69792295e-01f,+2.11764753e-01f,+2.75482029e-01f,+5.43555953e-02f,
-5.28851274e-08f,-5.19975103e-08f,-4.99534174e-08f,+8.19894969e-01f,+5.71942985e-01f,
+6.34072065e-01f,+4.50774670e-01f,+2.19028234e-01f,+3.30946505e-01f,+1.63635477e-01f,
-1.03372462e-01f,-2.66466081e-01f,-8.96963716e-01f,-2.26436687e+00f,-3.43639404e-01f,
-1.63633432e-02f,+4.53719185e-05f,-1.30077666e-02f,-3.62130872e-04f,+3.47816167e-05f,
-5.24342107e-03f,-1.30498689e-02f,-5.05893070e-08f,-5.06315381e-08f,-5.07289251e-08f,
-1.46312088e-01f,-1.99570298e-01f,-5.91353178e-02f,-1.73032090e-01f,-1.76130280e-01f,
+4.77998108e-02f,+4.52699214e-02f,-5.55857047e-02f,-1.96765140e-02f,+2.04414710e-01f,
+8.47909570e-01f,-6.65608197e-02f,-6.46525025e-02f,+8.29216763e-02f,-1.02227256e-01f,
-5.51520586e-01f,-3.72350335e-01f,+2.12812766e-01f,+3.36232752e-01f,+3.24636005e-07f,
+3.24938441e-07f,+3.25636876e-07f,-1.35173082e+00f,-8.21870446e-01f,-5.27780771e-01f,
-4.36107546e-01f,+1.36942770e-02f,+1.41928241e-01f,+3.81148994e-01f,+6.97491229e-01f,
+6.72286808e-01f,+5.97883165e-01f,+3.48554730e-01f,+6.58844233e-01f,+5.85116804e-01f,
+1.27233493e+00f,+9.68110487e-02f,-7.83097804e-01f,-1.57218301e+00f,-3.83650750e-01f,
-4.51040901e-02f,+2.12718220e-07f,+2.12865615e-07f,+2.13206647e-07f,-6.07468188e-01f,
-4.48157758e-01f,-3.56468886e-01f,-3.01121622e-01f,-1.20342776e-01f,+3.56473103e-02f,
+1.40322238e-01f,+4.80384901e-02f,-8.33595097e-02f,+2.36884147e-01f,+7.33238161e-01f,
+1.28203958e-01f,+2.19252273e-01f,+1.24563709e-01f,+4.38158661e-02f,+1.27716571e-01f,
+3.23904417e-02f,+1.03526987e-01f,+1.53051913e-01f,-8.44650572e-08f,-8.46068815e-08f,
-8.49368291e-08f,-2.16030912e-03f,-2.76490431e-02f,-1.19688503e-01f,-6.08088493e-01f,
-4.67063367e-01f,-1.26062945e-01f,+1.31153852e-01f,+4.07690667e-02f,+3.14212114e-01f,
+3.70344222e-01f,+3.03986371e-01f,-8.40590615e-03f,-1.40470453e-02f,+2.22114190e-01f,
+2.12625265e-02f,+6.09536693e-02f,+1.07176052e-02f,-3.30083594e-02f,+4.07609791e-02f,
+1.33659313e-07f,+1.33752593e-07f,+1.33968257e-07f,+3.29648167e-01f,+2.65909642e-01f,
+1.64099112e-01f,+1.78777739e-01f,+1.86207294e-01f,+5.65157942e-02f,+1.36261359e-01f,
-3.13547179e-02f,+3.12595308e-01f,+2.46123433e-01f,-1.17184326e-01f,-1.52480102e+00f,
-1.32207483e-01f,-2.63397553e-04f,-1.31484764e-02f,-1.81324576e-04f,+5.53401951e-05f,
-4.62946016e-03f,-1.21710123e-02f,-4.33779341e-08f,-4.34140546e-08f,-4.34974581e-08f,
-1.07708649e-04f,-1.51183092e-04f,-1.14635994e-04f,-2.30535422e-03f,-1.08291820e-01f,
-6.17610663e-02f,-2.06625611e-01f,-4.42649305e-01f,-9.53193307e-01f,-1.15850627e+00f,
-2.33898506e-01f,+5.75049460e-01f,+5.05650759e-01f,+3.00011694e-01f,+2.97588944e-01f,
+5.38233340e-01f,+6.47700727e-01f,+2.28795558e-01f,+5.59822517e-03f,+1.24549615e-09f,
+1.24194344e-09f,+1.23296218e-09f,-4.41991419e-01f,-3.70392412e-01f,-2.68002033e-01f,
-1.90700978e-01f,-2.73951963e-02f,+8.48782957e-02f,+1.16945133e-01f,+6.51934966e-02f,
-2.95299739e-01f,+1.63846597e-01f,+5.56076765e-01f,-4.06640843e-02f,+1.16324186e-01f,
+6.53338805e-02f,+9.66626480e-02f,+2.16277942e-01f,+1.90029070e-01f,+5.94823137e-02f,
+1.59782544e-01f,-3.38843620e-08f,-3.39351658e-08f,-3.40538406e-08f,-1.25799706e-05f,
-2.02646037e-03f,-7.86814652e-03f,-2.23903060e-01f,-1.87787324e-01f,-4.57767136e-02f,
+1.56394675e-01f,-2.06863523e-01f,-1.51614869e+00f,+3.16507429e-01f,+4.10665601e-01f,
+1.20970376e-01f,+1.81945950e-01f,+1.02765702e-01f,+2.03540355e-01f,+1.10478833e-01f,
+2.44076148e-01f,+4.65421602e-02f,+2.38991529e-01f,+2.26493796e-07f,+2.26620557e-07f,
+2.26912050e-07f,+2.64827831e-05f,-1.73831603e-03f,-1.09082293e-02f,-4.36863536e-03f,
+2.00988904e-01f,-5.35029161e-04f,+1.08219445e-01f,+2.34157622e-01f,+8.63760173e-01f,
-8.71018693e-02f,-2.84936190e-01f,+2.94403851e-01f,+7.91246770e-04f,+5.67720115e-01f,
-1.80880284e+00f,-6.32763565e-01f,-2.19831347e-01f,+2.03845814e-01f,+3.29468042e-01f,
-6.31979958e-07f,-6.32064598e-07f,-6.32252977e-07f,+9.42470228e-34f,+5.78528251e-33f,
+3.44969939e-33f,-1.22283876e-33f,-1.96602165e-33f,-3.85431153e-33f,-2.46238240e-34f,
+8.94733954e-34f,+4.09068140e-33f,+5.44975307e-33f,+4.59027559e-35f,+9.37497795e-34f,
-3.25245916e-33f,-5.66915395e-34f,-4.18949355e-34f,+5.89879522e-33f,+4.75998621e-33f,
+4.27827414e-34f,-5.80385128e-33f,-4.27965902e-33f,-1.50740730e-33f,+3.32686464e-33f,
-2.77269050e-03f,-9.22766142e-03f,-5.05076908e-02f,-1.03807852e-01f,-3.40424806e-01f,
-1.46226501e-02f,+2.17092320e-01f,+1.34577274e-01f,-7.55864084e-02f,+2.28870645e-01f,
+4.53557163e-01f,-8.71794224e-01f,+3.44545275e-01f,-8.83581191e-02f,-8.83793980e-02f,
+1.03430776e-02f,+1.52195990e-01f,+2.96234727e-01f,-1.61490500e-01f,-4.43359852e-07f,
-4.43744256e-07f,-4.44632065e-07f,-1.37223833e-05f,-2.25048745e-03f,-9.35487822e-03f,
-3.42632622e-01f,-2.72292256e-01f,-4.16795939e-01f,-1.35445011e+00f,-5.51922917e-01f,
+6.76970005e-01f,+5.09901464e-01f,+1.18566237e-01f,+9.09550190e-02f,+1.86402455e-01f,
+1.03538297e-01f,+2.34925106e-01f,+2.21535429e-01f,+2.16990605e-01f,+3.87720197e-01f,
+5.12634628e-02f,+5.06469348e-07f,+5.06794265e-07f,+5.07543746e-07f,+8.11895297e-05f,
-7.07617874e-05f,-3.05131264e-03f,-5.17348200e-02f,+2.53046066e-01f,+1.40166655e-01f,
-3.41913193e-01f,-1.09796762e+00f,+7.05978394e-01f,+4.66303110e-01f,-9.26123559e-01f,
-6.95178807e-02f,+2.15200588e-01f,+2.61892308e-03f,+1.86803594e-01f,+4.28869158e-01f,
+2.21244857e-01f,-1.61968663e-01f,-2.41741221e-02f,+7.19440010e-08f,+7.19832940e-08f,
+7.20734334e-08f,-1.61884397e-01f,+8.94602016e-02f,+1.33612147e-02f,+1.47688806e-01f,
+2.90243298e-01f,+9.68370438e-02f,+9.62764546e-02f,+2.71676779e-01f,+1.23524450e-01f,
+7.39112198e-02f,+7.01617837e-01f,+1.14969480e+00f,-4.16044891e-01f,-1.66193604e+00f,
-1.31883651e-01f,-7.51565967e-05f,-5.30403304e-05f,-6.12348039e-03f,-1.53627684e-02f,
-5.61454030e-08f,-5.61922704e-08f,-5.63005464e-08f,-3.38446259e-01f,+2.41956320e-02f,
+9.77299884e-02f,+2.43831933e-01f,+1.17497526e-01f,+4.12101358e-01f,+3.60505372e-01f,
+2.88015932e-01f,-1.65619720e-02f,+4.97080714e-01f,+6.83685243e-01f,-9.95820481e-03f,
+2.55228549e-01f,-2.87106484e-02f,-3.86864930e-01f,-5.27832150e-01f,-4.77030128e-01f,
-8.66084874e-01f,-4.97383952e-01f,+3.31623738e-07f,+3.32645499e-07f,+3.35010895e-07f,
}; 
k2c_tensor Layer5_kernel = {&Layer5_kernel_array[0],2,440,{20,22, 1, 1, 1}}; 
float Layer5_bias_array[22] = {
-2.93241835e+00f,-3.67522693e+00f,-2.04986954e+00f,+1.17148988e-01f,+7.03416407e-01f,
+1.33787215e+00f,+1.20154560e+00f,+1.91771567e-01f,-5.95925033e-01f,+3.10761780e-01f,
-7.55209446e-01f,-1.34865604e-02f,+8.41509551e-02f,-1.22168291e+00f,+5.49229383e-01f,
+2.23982096e-01f,+8.02075922e-01f,+5.57623029e-01f,+8.22358847e-01f,-1.32667971e+01f,
-1.32659750e+01f,-1.32640791e+01f,}; 
k2c_tensor Layer5_bias = {&Layer5_bias_array[0],1,22,{22, 1, 1, 1, 1}}; 
float Layer5_fwork[460] = {0}; 

 
k2c_dense(&Layer2_output,input_2_input,&Layer2_kernel, 
	&Layer2_bias,k2c_relu,Layer2_fwork); 
k2c_dense(&Layer3_output,&Layer2_output,&Layer3_kernel, 
	&Layer3_bias,k2c_relu,Layer3_fwork); 
k2c_dense(&Layer4_output,&Layer3_output,&Layer4_kernel, 
	&Layer4_bias,k2c_relu,Layer4_fwork); 
k2c_dense(Layer5_output,&Layer4_output,&Layer5_kernel, 
	&Layer5_bias,k2c_linear,Layer5_fwork); 

 } 

void NrjMngt_Conso_HP_BV_2EMB_TWC_test_initialize() { 

} 

void NrjMngt_Conso_HP_BV_2EMB_TWC_test_terminate() { 

} 

